f8
e9
0c
65
05
a5
79
c5
b8
fb
52
34
2d
cd
d6
12
62
a8
5d
87
da
c8
78
f9
fa
82
02
79
3c
8c
8a
ef
b9
e1
25
a6
de
df
e9
4a
47
f6
5b
6f
fe
41
80
87
df
6a
52
b2
f6
98
ce
51
68
42
99
7f
98
2e
e3
37
fd
cd
3a
69
09
7b
46
01
f9
7f
89
5d
30
a7
ac
56
70
90
4a
22
fa
34
20
12
cd
5e
c1
a5
c3
8b
e8
85
aa
77
79
d9
5d
48
3b
2e
99
76
89
02
44
fc
f4
c5
d4
57
4b
23
37
b5
f2
8a
99
f5
06
63
0c
bb
91
d6
1f
c0
24
e4
c0
5c
28
b2
27
e0
30
1a
0d
32
19
18
ce
05
d9
b7
99
db
8f
4c
ba
22
31
2d
5b
f2
84
8b
20
2e
8b
e9
d2
12
0f
26
45
7a
58
79
80
f2
46
26
42
ce
ba
b8
db
e4
04
75
0b
bc
ee
06
7b
5e
d3
9a
ac
aa
8d
16
f7
88
44
e8
20
f8
15
7a
25
27
02
95
d2
26
7c
ef
af
12
b6
a9
71
3b
5a
a8
7a
93
a9
f4
d9
d2
62
33
d8
3a
b8
57
16
19
49
6d
a9
09
f4
ca
da
19
c9
58
f1
64
a2
a9
20
90
69
d5
dd
a0
06
7d
40
f5
4f
4f
16
03
c6
09
c1
1b
45
cc
8b
0c
91
19
d8
19
65
d3
91
62
5e
73
73
43
dd
bf
01
39
bd
a6
fb
4c
f4
f2
1b
b5
4f
88
2e
79
60
03
1e
6f
8c
86
64
0c
1e
56
d3
58
6e
ae
d4
15
b4
ac
7b
bd
28
ba
77
a0
f6
f4
b9
0b
22
68
fd
93
24
30
92
24
1d
79
34
c4
9d
25
e3
7c
92
67
99
d7
91
7f
7f
2c
3e
cc
cb
6f
ff
10
ef
35
e1
fd
bb
5a
e0
c4
63
11
73
a2
35
70
91
28
f8
2f
57
0a
1c
7d
ea
6e
fc
15
e0
38
77
62
d6
83
a9
e9
83
d6
48
42
a7
35
25
cd
97
e8
62
15
92
a4
2a
ea
f4
4a
f1
4c
c5
66
da
eb
52
ef
73
fa
45
cc
9e
c4
a6
87
c9
3f
79
6a
32
ff
a1
10
8c
0e
90
5c
03
57
f1
84
f1
65
31
ac
07
53
c2
99
5f
22
f8
1c
ff
ec
e6
a5
7e
bc
77
a5
a6
4b
ee
f0
ca
fa
05
75
16
3c
7d
a9
64
19
01
55
ba
ae
c6
33
16
0d
f5
42
f4
86
58
31
b8
6a
6e
13
da
2b
cf
b9
93
0a
57
fe
e3
77
bf
c7
8b
f6
27
13
0c
76
35
90
e6
83
18
55
ba
10
29
76
ac
cb
4f
b5
86
c2
d7
71
54
ef
c6
e6
fe
56
76
dc
1b
3c
a9
de
7d
6d
39
fc
6b
44
23
6a
a1
c1
ef
80
22
45
04
41
7c
aa
13
8c
9c
b7
c8
83
73
f7
8a
50
56
0e
41
96
05
f7
58
ff
12
08
61
bd
05
82
2d
c2
8c
ed
d5
ea
ae
f8
e6
f8
5b
95
fb
89
27
92
c4
61
9f
41
64
de
30
d1
09
18
dd
c3
9c
95
9a
d0
5c
f6
6c
70
b9
fc
55
c5
a3
7b
07
5e
30
93
b5
1d
52
a2
2b
38
87
af
94
1f
4b
ce
2d
ae
5c
87
fd
7a
bb
2f
80
e8
d2
d8
d8
f6
b8
4f
2d
52
ad
40
7f
fe
ab
d1
be
3c
4e
2f
80
0b
e1
4e
4b
93
88
f7
c1
3c
86
b1
b5
b2
74
c6
f6
6c
57
a0
af
8c
12
4b
01
97
05
e6
d9
77
37
cc
de
6d
78
65
12
95
c4
f2
85
0b
11
9c
92
bc
4a
8f
f4
0b
bf
ae
44
b7
17
ad
48
90
ee
d4
f7
3d
0d
b4
37
6f
78
c0
e8
21
ae
ff
fe
a5
0e
26
a0
91
07
3c
13
b7
d1
6d
12
2c
39
a4
8b
a9
b4
13
ff
26
8b
f2
8b
fb
7d
bb
5a
27
6c
68
78
98
b0
51
9c
af
9c
62
c7
df
f2
33
d3
e6
1b
6c
d3
5a
bd
99
e5
97
a7
90
1e
8d
e5
93
9c
bf
73
79
62
f8
23
a0
b1
be
ba
ad
55
67
2b
9d
a7
92
b2
23
41
ab
00
40
87
fb
44
1f
ba
92
2f
a3
1e
dd
41
3b
83
f4
a1
ad
b2
9a
df
ba
ac
45
8a
dd
79
98
d1
28
e3
53
ab
d1
05
5d
49
5a
25
1e
8d
76
29
61
12
17
9d
72
12
99
6e
36
25
24
c5
be
a8
63
1a
ac
37
fc
90
21
ec
7f
71
c5
fc
fb
15
2b
3c
ce
37
c6
f7
1f
2a
06
4d
8e
a4
a5
d2
8b
d4
fa
49
9a
ef
cb
92
c4
b7
f9
64
63
75
c5
88
02
24
ca
ed
5a
a3
2c
27
b2
ed
db
3b
2e
01
01
05
fc
d3
a7
b0
e0
4a
aa
7f
06
79
29
da
6d
92
12
9a
2b
30
a6
f8
cb
d8
6e
7a
12
ec
8c
50
56
22
ee
a7
b9
9d
9f
b4
fd
2b
f1
59
87
6f
46
f6
47
bf
33
1f
f4
b2
d8
21
7d
b8
cf
e3
4c
87
bf
f5
73
72
2c
31
20
b4
8f
c0
d2
93
f3
e5
61
00
73
c4
d6
eb
6d
b2
ec
c3
f7
bc
39
